<unk>	0
<s>	0
</s>	0
<pad>	0
<start>	0
<end>	0
න්	-0
වා	-1
නවා	-2
ල්	-3
ෙන්	-4
ත්	-5
▁ක	-6
▁අ	-7
▁ප	-8
යා	-9
▁ග	-10
ක්	-11
▁න	-12
තා	-13
වල්	-14
▁හ	-15
▁ද	-16
නා	-17
ගේ	-18
ගෙන්	-19
ටත්	-20
▁එ	-21
▁නි	-22
▁බ	-23
ියා	-24
න්න	-25
▁හි	-26
▁ම	-27
▁ස	-28
ස්	-29
න්නවා	-30
▁ව	-31
පි	-32
ම්	-33
නාව	-34
▁හිනාව	-35
▁ය	-36
දා	-37
දාග	-38
▁නිදාග	-39
ත්තා	-40
ුවා	-41
ිය	-42
ලි	-43
▁ඇ	-44
▁ඉ	-45
▁දැ	-46
▁ආ	-47
යේ	-48
▁අපි	-49
සල	-50
▁පන්	-51
▁පා	-52
සල්	-53
▁නිව	-54
▁ගෙ	-55
ෙට	-56
සිය	-57
▁ඊ	-58
▁ඊයේ	-59
▁දැන්	-60
▁අද	-61
▁හෙට	-62
ෙනවා	-63
ුව	-64
ම්ම	-65
▁අම්ම	-66
▁තා	-67
රි	-68
▁කා	-69
තේ	-70
ුර	-71
▁පො	-72
▁මල්	-73
තර	-74
ැල	-75
▁ඉන්නවා	-76
ුනා	-77
▁හිනාවුනා	-78
▁එනවා	-79
▁ඇඬ	-80
▁ඇඬුවා	-81
▁එන්න	-82
▁යනවා	-83
ටියා	-84
▁හිටියා	-85
ැඩ	-86
▁කර	-87
▁වැඩ	-88
▁කරනවා	-89
▁හිනාවෙනවා	-90
▁ආවා	-91
කා	-92
ක්කා	-93
▁අඬ	-94
▁අඬනවා	-95
▁නිදාගන්නවා	-96
▁ගියා	-97
▁යන්න	-98
▁නිදාගත්තා	-99
▁එක	-100
▁අපිට	-101
▁මම	-102
▁මං	-103
▁පාසල	-104
▁කෑ	-105
▁කො	-106
▁එයා	-107
ළඹ	-108
▁කොළඹ	-109
▁පන්සල්	-110
රෝ	-111
හල	-112
▁රෝ	-113
▁රෝහල	-114
▁ගේ	-115
▁පන්සල	-116
▁ගෙවල්	-117
▁නිවස	-118
ුස්	-119
▁කුස්	-120
▁කුස්සිය	-121
පහ	-122
ම්පහ	-123
▁ගම්පහ	-124
ඩේ	-125
▁කඩේ	-126
හන	-127
▁නිවහන	-128
ඳස	-129
ෙළ	-130
ඳසැල	-131
▁වෙළ	-132
▁වෙළඳසැල	-133
තාල	-134
පිරි	-135
▁ඉස්	-136
පිරිතාල	-137
▁ඉස්පිරිතාල	-138
දර	-139
▁ගෙදර	-140
▁පාසල්	-141
මර	-142
▁කාමර	-143
ෝද	-144
▁සෝද	-145
▁බල	-146
▁ඇය	-147
▁කාමරය	-148
▁ඉස්පිරිතාලෙ	-149
රයා	-150
ුරුව	-151
▁ගුරුව	-152
▁ගුරුවරයා	-153
▁අය	-154
▁අයියා	-155
▁අක්කා	-156
▁අම්මා	-157
ලිසිය	-158
▁පොලිසිය	-159
▁ඔ	-160
▁ඔයා	-161
ොස්	-162
ොස්තර	-163
▁දොස්තර	-164
ෝනා	-165
▁නෝනා	-166
▁දුව	-167
ත්තේ	-168
▁තාත්තේ	-169
▁අම්මේ	-170
ංග	-171
ංගි	-172
▁නංගි	-173
▁මල්ලි	-174
ැම	-175
▁සැම	-176
▁සැමියා	-177
ච්	-178
චි	-179
ච්චි	-180
▁ආච්චි	-181
ුතා	-182
▁පුතා	-183
ීයා	-184
▁සීයා	-185
▁තාත්තා	-186
▁කිය	-187
ව්	-188
ව්වා	-189
▁බො	-190
තුර	-191
▁වතුර	-192
▁තේ	-193
▁බත්	-194
ෑන	-195
▁පෑන	-196
ෝල	-197
▁බෝල	-198
ල්ලි	-199
▁සල්ලි	-200
තරේ	-201
▁පත්	-202
▁පත්තරේ	-203
▁බස්	-204
ිරි	-205
▁කිරි	-206
ර්	-207
▁කාර්	-208
▁කෑම	-209
▁බෝලය	-210
▁පොත	-211
▁ගන්නවා	-212
▁දැක්කා	-213
▁සෝදනවා	-214
▁සෝදන්න	-215
▁බැල	-216
▁බැලුවා	-217
ුන්	-218
ුන්නා	-219
▁දුන්නා	-220
ේද	-221
▁සේද	-222
▁සේදුවා	-223
▁දෙනවා	-224
▁ගත්තා	-225
▁බලනවා	-226
කි	-227
▁දකි	-228
▁දකිනවා	-229
▁පේ	-230
▁පේනවා	-231
▁බලන්න	-232
▁කන්න	-233
ෙව්වා	-234
▁කියෙව්වා	-235
වනවා	-236
▁කියවනවා	-237
▁බොන්න	-238
▁බොනවා	-239
ැහ	-240
▁ගැහ	-241
▁ගැහුවා	-242
▁බි	-243
▁බිව්වා	-244
▁කෑවා	-245
▁කනවා	-246
▁ගහ	-247
▁ගහනවා	-248
▁මන්	-249
▁එකගෙන්	-250
▁එකක්	-251
▁එකේ	-252
▁එකවල්	-253
▁එකෙන්	-254
▁මට	-255
▁එකගේ	-256
▁එකට	-257
▁එකටත්	-258
▁නිවසෙන්	-259
▁කුස්සියගෙන්	-260
▁කොළඹවල්	-261
▁රෝහලට	-262
▁කාමරයටත්	-263
▁ගෙවල්ේ	-264
▁පන්සල්ටත්	-265
▁කොළඹටත්	-266
▁රෝහලටත්	-267
▁රෝහලගේ	-268
▁පන්සල්ට	-269
▁කඩේට	-270
▁පන්සල්ගෙන්	-271
▁කුස්සියවල්	-272
▁රෝහලගෙන්	-273
▁කොළඹගෙන්	-274
▁පාසලගේ	-275
▁ගේගෙන්	-276
▁ගේක්	-277
▁පාසලක්	-278
▁පාසල්ේ	-279
▁පාසලට	-280
▁පාසලෙන්	-281
▁ගේගේ	-282
▁ගේට	-283
▁පාසල්ගේ	-284
▁නිවසගෙන්	-285
▁ගෙවල්ෙන්	-286
▁පාසල්ගෙන්	-287
▁නිවහනගෙන්	-288
▁ගෙදරේ	-289
▁පන්සලවල්	-290
▁වෙළඳසැලගේ	-291
▁වෙළඳසැලගෙන්	-292
▁නිවහනටත්	-293
▁පන්සලගෙන්	-294
▁ගෙදරක්	-295
▁ගම්පහේ	-296
▁පන්සල්ෙන්	-297
▁ඉස්පිරිතාලෙගේ	-298
▁ගේෙන්	-299
▁කඩේටත්	-300
▁නිවහනක්	-301
▁ඉස්පිරිතාලෙෙන්	-302
▁කුස්සියගේ	-303
▁කොළඹගේ	-304
▁කඩේවල්	-305
▁පන්සලගේ	-306
▁කඩේගෙන්	-307
▁පන්සල්ගේ	-308
▁ගෙදරවල්	-309
▁කාමරයෙන්	-310
▁කොළඹෙන්	-311
▁ගම්පහගේ	-312
▁කාමරයවල්	-313
▁පාසලගෙන්	-314
▁පාසලේ	-315
▁ගෙවල්ක්	-316
▁ගම්පහට	-317
▁ඉස්පිරිතාලෙක්	-318
▁කඩේෙන්	-319
▁කොළඹට	-320
▁වෙළඳසැලටත්	-321
▁පාසල්ක්	-322
▁ගෙවල්ගෙන්	-323
▁පන්සලෙන්	-324
▁ඉස්පිරිතාලෙට	-325
▁රෝහලේ	-326
▁නිවසවල්	-327
▁පාසලවල්	-328
▁ගම්පහගෙන්	-329
▁ගම්පහක්	-330
▁නිවසක්	-331
▁රෝහලක්	-332
▁කාමරයක්	-333
▁පන්සලේ	-334
▁ගේටත්	-335
▁ගම්පහෙන්	-336
▁ඉස්පිරිතාලෙවල්	-337
▁පාසලටත්	-338
▁කුස්සියක්	-339
▁කුස්සියෙන්	-340
▁කොළඹේ	-341
▁පාසල්ට	-342
▁වෙළඳසැලෙන්	-343
▁නිවහනගේ	-344
▁කඩේගේ	-345
▁ගෙදරෙන්	-346
▁නිවහනවල්	-347
▁පන්සල්ේ	-348
▁ගෙවල්ගේ	-349
▁වෙළඳසැලවල්	-350
▁නිවසට	-351
▁වෙළඳසැලේ	-352
▁කොළඹක්	-353
▁පාසල්ෙන්	-354
▁පන්සලට	-355
▁පන්සලක්	-356
▁ගම්පහටත්	-357
▁ගෙවල්ටත්	-358
▁ගෙදරගේ	-359
▁ගෙවල්ට	-360
▁නිවසටත්	-361
▁ගේවල්	-362
▁ගේේ	-363
▁නිවහනට	-364
▁කාමරයේ	-365
▁නිවහනේ	-366
▁ගෙවල්වල්	-367
▁නිවහනෙන්	-368
▁කාමරයගෙන්	-369
▁කඩේක්	-370
▁ගම්පහවල්	-371
▁ගෙදරටත්	-372
▁කුස්සියේ	-373
▁කඩේේ	-374
▁නිවසගේ	-375
▁ගෙදරට	-376
▁කාමරයට	-377
▁පන්සල්වල්	-378
▁පන්සලටත්	-379
▁රෝහලෙන්	-380
▁ඉස්පිරිතාලෙටත්	-381
▁නිවසේ	-382
▁කුස්සියටත්	-383
▁ඉස්පිරිතාලෙේ	-384
▁වෙළඳසැලට	-385
▁පන්සල්ක්	-386
▁වෙළඳසැලක්	-387
▁පාසල්වල්	-388
▁ගෙදරගෙන්	-389
▁ඉස්පිරිතාලෙගෙන්	-390
▁කුස්සියට	-391
▁කාමරයගේ	-392
▁රෝහලවල්	-393
▁පාසල්ටත්	-394
▁අපිගේ	-395
▁ඇයගෙන්	-396
▁අම්මේවල්	-397
▁මංට	-398
▁නෝනාට	-399
▁ගුරුවරයාට	-400
▁පුතාවල්	-401
▁අක්කාගේ	-402
▁මමගේ	-403
▁අම්මාක්	-404
▁දොස්තරට	-405
▁මල්ලිට	-406
▁නෝනාටත්	-407
▁පොලිසියේ	-408
▁දොස්තරෙන්	-409
▁තාත්තේගෙන්	-410
▁ආච්චිෙන්	-411
▁සීයාටත්	-412
▁නංගිගේ	-413
▁අක්කාගෙන්	-414
▁මල්ලිවල්	-415
▁ගුරුවරයාක්	-416
▁දුවටත්	-417
▁සීයාගේ	-418
▁ඇයට	-419
▁ඔයාෙන්	-420
▁තාත්තේගේ	-421
▁අයියාට	-422
▁පොලිසියටත්	-423
▁අපිවල්	-424
▁අම්මේගෙන්	-425
▁ආච්චිගේ	-426
▁පුතාගේ	-427
▁අයියාටත්	-428
▁අයියාෙන්	-429
▁මල්ලිගේ	-430
▁අක්කාක්	-431
▁අක්කාේ	-432
▁අක්කාට	-433
▁එයාෙන්	-434
▁දුවවල්	-435
▁අක්කාටත්	-436
▁ගුරුවරයාෙන්	-437
▁ඔයාට	-438
▁සීයාවල්	-439
▁තාත්තේක්	-440
▁දුවගේ	-441
▁නංගික්	-442
▁ඔයාේ	-443
▁අම්මාටත්	-444
▁අයියාේ	-445
▁පොලිසියගේ	-446
▁දුවක්	-447
▁මංක්	-448
▁එයාගේ	-449
▁මංෙන්	-450
▁දුවට	-451
▁නෝනාවල්	-452
▁දොස්තරක්	-453
▁සැමියාක්	-454
▁තාත්තාෙන්	-455
▁අම්මාේ	-456
▁ගුරුවරයාවල්	-457
▁අපිගෙන්	-458
▁අම්මාගේ	-459
▁දොස්තරවල්	-460
▁අපිටේ	-461
▁අපිටටත්	-462
▁ගුරුවරයාගේ	-463
▁ඔයාගේ	-464
▁සැමියාටත්	-465
▁දොස්තරගේ	-466
▁ඇයෙන්	-467
▁නංගිට	-468
▁අම්මේේ	-469
▁තාත්තේේ	-470
▁සැමියාට	-471
▁අම්මාවල්	-472
▁තාත්තාගේ	-473
▁අම්මාට	-474
▁ආච්චිේ	-475
▁ඔයාගෙන්	-476
▁පොලිසියෙන්	-477
▁අයියාක්	-478
▁ඔයාටත්	-479
▁තාත්තාටත්	-480
▁තාත්තේවල්	-481
▁මමක්	-482
▁එයාවල්	-483
▁අම්මේක්	-484
▁අයියාගේ	-485
▁අක්කාවල්	-486
▁මල්ලිෙන්	-487
▁පොලිසියගෙන්	-488
▁මංගෙන්	-489
▁මල්ලිගෙන්	-490
▁නංගිටත්	-491
▁නෝනාගේ	-492
▁අපිටට	-493
▁ගුරුවරයාටත්	-494
▁ඇයවල්	-495
▁අම්මාගෙන්	-496
▁ඇයක්	-497
▁අම්මාෙන්	-498
▁මමෙන්	-499
▁අම්මේටත්	-500
▁ආච්චිගෙන්	-501
▁තාත්තාට	-502
▁ගුරුවරයාගෙන්	-503
▁නෝනාෙන්	-504
▁ගුරුවරයාේ	-505
▁මමට	-506
▁එයාක්	-507
▁මල්ලිේ	-508
▁මංේ	-509
▁තාත්තාක්	-510
▁මමටත්	-511
▁දුවෙන්	-512
▁සැමියාේ	-513
▁සැමියාගේ	-514
▁මමේ	-515
▁ඇයටත්	-516
▁සැමියාෙන්	-517
▁පුතාෙන්	-518
▁ආච්චිවල්	-519
▁නෝනාගෙන්	-520
▁අයියාගෙන්	-521
▁ඔයාවල්	-522
▁අපිටවල්	-523
▁අම්මේගේ	-524
▁නංගිගෙන්	-525
▁තාත්තාගෙන්	-526
▁සීයාක්	-527
▁නෝනාක්	-528
▁මමගෙන්	-529
▁එයාට	-530
▁ඇයේ	-531
▁සැමියාගෙන්	-532
▁සැමියාවල්	-533
▁නංගිෙන්	-534
▁තාත්තේටත්	-535
▁නංගිේ	-536
▁පුතාක්	-537
▁තාත්තාවල්	-538
▁මංගේ	-539
▁පුතාේ	-540
▁අම්මේට	-541
▁දොස්තරටත්	-542
▁සීයාේ	-543
▁ආච්චිට	-544
▁තාත්තේට	-545
▁අපිටගේ	-546
▁ආච්චික්	-547
▁පොලිසියවල්	-548
▁නෝනාේ	-549
▁මමවල්	-550
▁එයාගෙන්	-551
▁දොස්තරේ	-552
▁පොලිසියක්	-553
▁දොස්තරගෙන්	-554
▁පොලිසියට	-555
▁ඇයගේ	-556
▁අපිටක්	-557
▁අක්කාෙන්	-558
▁අපිේ	-559
▁සීයාට	-560
▁නංගිවල්	-561
▁අපිටෙන්	-562
▁මංටත්	-563
▁සීයාගෙන්	-564
▁අපික්	-565
▁ඔයාක්	-566
▁එයාේ	-567
▁පුතාට	-568
▁දුවේ	-569
▁පුතාටත්	-570
▁ආච්චිටත්	-571
▁එයාටත්	-572
▁දුවගෙන්	-573
▁මල්ලිටත්	-574
▁අයියාවල්	-575
▁අපිටත්	-576
▁පුතාගෙන්	-577
▁අපිෙන්	-578
▁තාත්තාේ	-579
▁සීයාෙන්	-580
▁අපිටගෙන්	-581
▁තාත්තේෙන්	-582
▁මල්ලික්	-583
▁මංවල්	-584
▁අම්මේෙන්	-585
▁පොතේ	-586
▁මල්ගේ	-587
▁වතුරක්	-588
▁පෑනක්	-589
▁තේේ	-590
▁වතුරටත්	-591
▁බෝලයට	-592
▁කෑමගේ	-593
▁කිරිට	-594
▁මල්ට	-595
▁වතුරගේ	-596
▁කිරිටත්	-597
▁බෝලයෙන්	-598
▁කිරිගෙන්	-599
▁පත්තරේෙන්	-600
▁වතුරට	-601
▁බෝලයටත්	-602
▁පොතටත්	-603
▁සල්ලික්	-604
▁සල්ලිටත්	-605
▁බත්ෙන්	-606
▁මල්ගෙන්	-607
▁පත්තරේට	-608
▁තේවල්	-609
▁පත්තරේටත්	-610
▁පොතගෙන්	-611
▁බෝලයගේ	-612
▁පොතගේ	-613
▁බත්ේ	-614
▁මල්ේ	-615
▁මල්ක්	-616
▁කෑමගෙන්	-617
▁වතුරවල්	-618
▁සල්ලිගෙන්	-619
▁මල්වල්	-620
▁තේටත්	-621
▁පෑනට	-622
▁කෑමට	-623
▁පත්තරේගෙන්	-624
▁තේගේ	-625
▁පෑනටත්	-626
▁පෑනේ	-627
▁සල්ලිේ	-628
▁සල්ලිෙන්	-629
▁බත්ටත්	-630
▁පෑනවල්	-631
▁පොතට	-632
▁බත්ගේ	-633
▁බත්වල්	-634
▁පෑනගෙන්	-635
▁තේගෙන්	-636
▁බත්ක්	-637
▁මල්ටත්	-638
▁පත්තරේක්	-639
▁තේෙන්	-640
▁බත්ට	-641
▁මල්ෙන්	-642
▁කෑමවල්	-643
▁බෝලයගෙන්	-644
▁තේට	-645
▁පෑනෙන්	-646
▁පෑනගේ	-647
▁වතුරේ	-648
▁බෝලයක්	-649
▁කෑමක්	-650
▁සල්ලිවල්	-651
▁පොතක්	-652
▁සල්ලිට	-653
▁කිරිේ	-654
▁පොතවල්	-655
▁පත්තරේේ	-656
▁කිරිගේ	-657
▁වතුරගෙන්	-658
▁බෝලයේ	-659
▁බත්ගෙන්	-660
▁සල්ලිගේ	-661
▁කිරිෙන්	-662
▁පොතෙන්	-663
▁කෑමෙන්	-664
▁වතුරෙන්	-665
▁බෝලයවල්	-666
▁පත්තරේගේ	-667
▁තේක්	-668
▁පත්තරේවල්	-669
▁කිරික්	-670
▁කෑමටත්	-671
▁කිරිවල්	-672
▁කෑමේ	-673
හෙ	-674
හෙද	-675
▁කොහෙද	-676
▁යන්නේ	-677
වු	-678
වුද	-679
▁කවුද	-680
ංක	-681
ංට	-682
ංව	-683
ංෙ	-684
ංේ	-685
අක	-686
අඬ	-687
අද	-688
අප	-689
අම	-690
අය	-691
ආච	-692
ආව	-693
ඇඬ	-694
ඇය	-695
ඉන	-696
ඉස	-697
ඊය	-698
එක	-699
එන	-700
එය	-701
ඔය	-702
කක	-703
කග	-704
කට	-705
කඩ	-706
කන	-707
කර	-708
කව	-709
කෑ	-710
කු	-711
කෙ	-712
කේ	-713
කො	-714
ගත	-715
ගන	-716
ගම	-717
ගහ	-718
ගැ	-719
ගි	-720
ගු	-721
ගෙ	-722
ටක	-723
ටග	-724
ටට	-725
ටත	-726
ටව	-727
ටි	-728
ටෙ	-729
ටේ	-730
ඬන	-731
ඬු	-732
තක	-733
තග	-734
තට	-735
තව	-736
තු	-737
තෙ	-738
දක	-739
දන	-740
දැ	-741
දු	-742
දෙ	-743
දො	-744
නං	-745
නක	-746
නග	-747
නට	-748
නව	-749
නි	-750
නෙ	-751
නේ	-752
නෝ	-753
පත	-754
පන	-755
පා	-756
පෑ	-757
පු	-758
පේ	-759
පො	-760
බත	-761
බල	-762
බස	-763
බැ	-764
බි	-765
බො	-766
බෝ	-767
මං	-768
මක	-769
මග	-770
මට	-771
මන	-772
මම	-773
මල	-774
මව	-775
මා	-776
මි	-777
මෙ	-778
මේ	-779
ඹක	-780
ඹග	-781
ඹට	-782
ඹව	-783
ඹෙ	-784
ඹේ	-785
යක	-786
යග	-787
යට	-788
යන	-789
යව	-790
යි	-791
යෙ	-792
රක	-793
රග	-794
රට	-795
රන	-796
රය	-797
රව	-798
රු	-799
රෙ	-800
රේ	-801
ලක	-802
ලග	-803
ලට	-804
ලන	-805
ලය	-806
ලව	-807
ලු	-808
ලෙ	-809
ලේ	-810
වක	-811
වග	-812
වට	-813
වත	-814
වන	-815
වර	-816
වල	-817
වව	-818
වස	-819
වහ	-820
වැ	-821
වෙ	-822
වේ	-823
සක	-824
සග	-825
සට	-826
සව	-827
සැ	-828
සි	-829
සී	-830
සෙ	-831
සේ	-832
සෝ	-833
හක	-834
හග	-835
හට	-836
හව	-837
හි	-838
හු	-839
හේ	-840
ළඳ	-841
්ක	-842
්ග	-843
්ච	-844
්ට	-845
්ත	-846
්න	-847
්ප	-848
්ම	-849
්ල	-850
්ව	-851
්ස	-852
්ෙ	-853
්ේ	-854
ාක	-855
ාග	-856
ාට	-857
ාත	-858
ාම	-859
ාර	-860
ාල	-861
ාව	-862
ාස	-863
ාෙ	-864
ාේ	-865
ැක	-866
ැන	-867
ෑම	-868
ෑව	-869
ික	-870
ිග	-871
ිට	-872
ිත	-873
ිද	-874
ින	-875
ිර	-876
ිව	-877
ිස	-878
ිෙ	-879
ිේ	-880
ීය	-881
ුත	-882
ුද	-883
ුන	-884
ුස	-885
ෙක	-886
ෙග	-887
ෙද	-888
ෙන	-889
ෙව	-890
ෙෙ	-891
ෙේ	-892
ේක	-893
ේග	-894
ේට	-895
ේන	-896
ේව	-897
ේෙ	-898
ේේ	-899
ොත	-900
ොන	-901
ොල	-902
ොස	-903
ොහ	-904
ොළ	-905
ෝන	-906
ෝහ	-907
▁ත	-908
▁ර	-909
ංක්	-910
ංගේ	-911
ආවා	-912
ඉන්	-913
ඉස්	-914
ඊයේ	-915
එන්	-916
එයා	-917
ඔයා	-918
කක්	-919
කගේ	-920
කන්	-921
ක්ක	-922
කාට	-923
කාේ	-924
ගත්	-925
ගන්	-926
ච්ච	-927
චිට	-928
චිේ	-929
ටක්	-930
ටගේ	-931
ඩේට	-932
ඩේේ	-933
තක්	-934
තගේ	-935
තරට	-936
ත්ක	-937
ත්ග	-938
ත්ට	-939
ත්ත	-940
ත්ව	-941
ත්ේ	-942
තාග	-943
තාට	-944
තාව	-945
තාේ	-946
තේට	-947
තේේ	-948
දන්	-949
දරට	-950
දරේ	-951
නක්	-952
නගේ	-953
න්ස	-954
නාග	-955
නාට	-956
නාේ	-957
පත්	-958
පන්	-959
පහට	-960
පහේ	-961
පිට	-962
පිර	-963
පිේ	-964
බත්	-965
මක්	-966
මගේ	-967
මන්	-968
මරය	-969
මල්	-970
ම්ප	-971
ඹක්	-972
ඹගේ	-973
යක්	-974
යගේ	-975
යන්	-976
යාක	-977
යාග	-978
යාට	-979
යාව	-980
යාේ	-981
රක්	-982
රගේ	-983
රයේ	-984
රිට	-985
රිේ	-986
රුව	-987
රෝහ	-988
ලක්	-989
ලගේ	-990
ලන්	-991
ලයේ	-992
ල්ක	-993
▁	-994
්	-995
න	-996
ා	-997
ව	-998
ි	-999
ග	-1000
ත	-1001
ල	-1002
ක	-1003
ය	-1004
ෙ	-1005
ේ	-1006
ස	-1007
ට	-1008
ද	-1009
ප	-1010
ම	-1011
ර	-1012
ු	-1013
හ	-1014
අ	-1015
ැ	-1016
එ	-1017
බ	-1018
ො	-1019
ෝ	-1020
ඬ	-1021
ඇ	-1022
ඉ	-1023
ඩ	-1024
ආ	-1025
ළ	-1026
ං	-1027
ඊ	-1028
ච	-1029
ෑ	-1030
ඹ	-1031
ඳ	-1032
ඔ	-1033
ී	-1034
